// Neural Network File Format by Kyle Julian, Stanford 2016
5,3,1,10,
3,10,10,5,2,1,
0,
-1,-1,-1,
1,1,1,
0.0,0.0,0.0,0.0,
1.0,1.0,1.0,1.0,
-1.28480e+00,3.01464e-01,-6.62660e-03,
-6.80591e-01,3.30495e-01,-8.84923e-02,
-1.37462e+00,-2.16108e-02,1.02558e+00,
3.33061e-01,-1.52053e-02,-2.20985e-01,
2.61862e-01,-6.17167e-02,-1.14224e-01,
2.21794e-01,-6.48433e-01,2.48456e-01,
6.79775e-01,-4.96951e-01,-3.86259e-01,
9.42064e-01,1.01138e+00,4.41088e-01,
2.74389e-01,4.33839e-01,-3.33680e-01,
-1.99418e-01,-1.87352e-01,1.94065e-01,
8.43267e-01,
4.46954e-01,
6.90550e-01,
-1.55322e-01,
-2.33576e-01,
2.47466e-01,
6.96810e-01,
-2.59542e-01,
2.14996e-02,
-1.47190e-01,
5.22718e-01,1.54972e-01,-5.98481e-02,8.07387e-02,2.62905e-02,-2.57295e-01,-1.49717e-01,1.48328e-01,3.63242e-02,-2.54043e-02,
6.31001e-01,4.88389e-01,-1.60039e-01,1.93358e-01,5.47282e-02,-3.36755e-01,-2.16559e-01,-2.66855e-02,2.80070e-01,-1.39834e-01,
5.08811e-02,5.63579e-02,3.13823e-02,1.84704e-01,-9.24939e-02,-9.40256e-02,-1.93083e-01,-1.65782e-02,-1.05897e-01,8.92299e-03,
-5.87164e-01,-2.36742e-01,8.90869e-01,1.33768e-01,-7.17070e-02,1.13595e-01,-6.92673e-01,1.10361e+00,1.21481e-01,4.17808e-02,
9.64179e-01,4.09027e-01,9.80489e-01,1.24798e-01,1.12127e-02,-3.13238e-01,-5.75280e-01,-8.61288e-01,-3.46979e-01,-1.17592e-01,
7.17619e-02,-5.76694e-02,4.84590e-01,-5.85334e-02,-2.95206e-02,-8.31937e-02,-4.84750e-01,1.33684e-01,-1.73102e-01,2.01886e-01,
-4.34915e-02,3.21117e-02,-1.14335e+00,-1.40446e-01,1.45702e-01,-4.84493e-01,-2.30679e-01,5.83591e-01,1.62386e-01,8.22266e-02,
-1.62231e-02,-1.36829e-02,7.03689e-02,-8.20926e-02,9.29336e-02,-7.13135e-02,-1.73963e-01,7.66576e-02,-2.09604e-01,-4.75249e-02,
5.72113e-01,4.46515e-01,1.92008e-02,-1.76661e-01,1.89790e-03,-2.84842e-01,-3.94016e-01,6.88278e-02,2.15031e-01,3.16074e-02,
-1.13671e-01,-1.56965e-01,-1.84504e-01,2.18247e-01,-3.79587e-02,-5.14935e-02,-8.19136e-02,-1.11381e-01,-2.03651e-01,-1.30731e-01,
-5.67969e-02,
1.03760e-01,
-1.00022e-01,
-4.44663e-01,
-1.45819e-02,
-1.27401e-01,
1.53250e-01,
5.19200e-02,
2.01322e-01,
8.65589e-02,
4.27103e-01,5.69006e-01,-8.73602e-02,-1.13678e+00,1.23275e+00,5.69514e-01,9.85755e-01,1.97421e-01,6.33090e-01,-2.06619e-02,
-1.50334e-01,-2.51913e-01,1.56622e-01,-3.74006e-02,1.05598e-01,1.26425e-02,-2.39994e-01,-1.26152e-01,7.23274e-02,-5.20450e-02,
-3.51276e-01,-8.29995e-02,9.21267e-03,6.47506e-01,-4.48655e-01,-1.52875e-01,-2.64635e-01,1.70001e-01,-4.49997e-03,3.22873e-02,
-4.95741e-02,-2.17844e-01,1.98531e-01,-6.79538e-02,-1.66168e-01,1.64864e-01,8.37187e-02,6.36333e-02,-5.09859e-02,-8.02456e-02,
2.85945e-01,6.23709e-01,3.81564e-02,-1.11881e+00,1.28027e+00,3.77012e-01,9.27424e-01,1.80707e-01,6.43425e-01,1.48361e-01,
-3.79309e-01,
-9.51108e-02,
1.14296e+00,
-5.94060e-02,
-3.57993e-01,
-2.24463e+00,2.64411e-01,1.40988e+00,-3.02087e-01,-2.16940e+00,
-3.40674e-01,-1.95020e-01,-2.81373e-01,2.57447e-01,-8.63636e-02,
1.68197e+00,
8.82540e-02,
-3.80806e+00,2.74823e-01,
4.85615e+00,
